<unk>	0
s	-2.91343
▁the	-3.52398
t	-3.65431
▁a	-3.9106
▁i	-3.93868
'	-4.01562
▁and	-4.07031
▁to	-4.10919
ed	-4.30834
d	-4.30995
e	-4.31666
▁of	-4.40269
ing	-4.46245
▁in	-4.48871
▁it	-4.49029
▁you	-4.49733
▁that	-4.58627
n	-4.6016
er	-4.65353
y	-4.77767
m	-4.91608
r	-4.97099
▁be	-5.05359
▁was	-5.12327
▁he	-5.14356
▁is	-5.14793
▁for	-5.15129
▁know	-5.20774
re	-5.23803
p	-5.25231
ly	-5.27684
▁but	-5.32227
▁they	-5.33477
g	-5.37997
▁so	-5.41977
▁yeah	-5.45061
▁have	-5.4746
▁we	-5.48237
o	-5.48541
c	-5.4874
▁s	-5.49986
▁like	-5.51799
or	-5.52945
▁on	-5.55435
a	-5.58353
i	-5.59311
▁re	-5.61832
▁with	-5.62184
ll	-5.62867
▁do	-5.64047
▁not	-5.65321
al	-5.65452
▁are	-5.66851
b	-5.70831
le	-5.74307
u	-5.7732
ar	-5.7933
▁c	-5.80676
es	-5.83581
▁this	-5.85338
▁as	-5.88569
l	-5.91331
en	-5.91382
▁uh	-5.9157
ion	-5.9565
▁what	-5.95838
in	-5.9647
ve	-5.96811
k	-5.97652
▁there	-5.98918
▁or	-5.99646
▁my	-6.00412
▁can	-6.01205
▁all	-6.02044
ent	-6.03077
f	-6.0384
▁his	-6.04211
▁me	-6.04726
▁just	-6.04945
▁at	-6.06649
▁de	-6.07242
▁f	-6.08203
▁don	-6.09858
▁um	-6.10604
il	-6.11236
w	-6.12245
▁had	-6.12664
▁no	-6.14212
an	-6.15046
▁think	-6.1568
it	-6.1606
ri	-6.16702
▁she	-6.17392
▁one	-6.17452
ra	-6.19973
▁go	-6.20198
▁if	-6.20561
h	-6.22825
▁from	-6.23219
ation	-6.24068
on	-6.24676
▁e	-6.26246
v	-6.26861
▁an	-6.27971
▁	-6.30823
ce	-6.3122
▁t	-6.32251
▁would	-6.32274
▁right	-6.32392
ch	-6.33578
▁were	-6.34064
ic	-6.34356
▁out	-6.34648
▁will	-6.3504
ur	-6.35044
▁about	-6.35074
▁well	-6.3585
ment	-6.36119
▁oh	-6.37578
ck	-6.38093
▁by	-6.38139
▁her	-6.40596
▁up	-6.40822
▁con	-6.44213
▁when	-6.45683
▁st	-6.45817
cause	-6.46536
th	-6.48274
ir	-6.49338
▁also	-6.49512
▁their	-6.49883
▁more	-6.50795
▁time	-6.51256
▁w	-6.53054
▁people	-6.53313
▁how	-6.53501
▁has	-6.53668
▁pa	-6.54631
▁mean	-6.55819
li	-6.56348
▁g	-6.56686
▁some	-6.57285
▁get	-6.57617
▁d	-6.57735
▁really	-6.60844
▁ex	-6.63505
ro	-6.63806
ate	-6.64212
▁said	-6.66018
▁been	-6.67065
ge	-6.69967
ne	-6.70281
▁who	-6.7092
el	-6.73506
▁other	-6.74443
▁ba	-6.74605
▁bu	-6.75363
ist	-6.75822
▁them	-6.76303
ut	-6.76403
▁now	-6.7682
▁work	-6.77138
ol	-6.77163
▁co	-6.77233
▁po	-6.78573
▁un	-6.80086
▁your	-6.8125
▁him	-6.81375
lo	-6.81583
▁good	-6.81841
ver	-6.83555
▁could	-6.83765
us	-6.83783
te	-6.84637
▁pro	-6.8471
▁even	-6.8598
▁ra	-6.86006
ies	-6.86445
▁see	-6.87222
la	-6.87502
est	-6.87601
▁fa	-6.87928
ad	-6.88312
▁then	-6.89158
▁ro	-6.89419
▁mo	-6.90798
at	-6.91387
x	-6.9152
as	-6.91647
▁any	-6.92596
ow	-6.9284
ance	-6.92847
▁su	-6.93083
▁bo	-6.93463
ul	-6.94749
ive	-6.95228
▁two	-6.95234
▁p	-6.95903
ng	-6.9596
▁la	-6.96637
▁say	-6.97359
▁o	-6.97622
z	-6.98273
▁ma	-6.98335
▁over	-6.98778
id	-6.99227
age	-6.99275
▁very	-7.00298
▁which	-7.00518
▁did	-7.02207
ry	-7.0364
▁our	-7.04252
▁want	-7.04407
▁after	-7.04415
▁new	-7.05116
▁v	-7.05503
▁ha	-7.05686
▁ah	-7.06532
▁where	-7.0677
oo	-7.07339
ity	-7.07999
ke	-7.08308
▁ch	-7.08717
▁lot	-7.08794
▁into	-7.08926
▁lo	-7.09113
▁se	-7.10392
▁sp	-7.10417
ure	-7.11285
▁kind	-7.11531
▁day	-7.1217
▁than	-7.12334
▁dis	-7.12553
▁these	-7.13362
▁li	-7.13457
▁take	-7.13484
▁going	-7.13943
▁di	-7.14089
ence	-7.15078
▁k	-7.15149
▁make	-7.15157
▁look	-7.15683
▁too	-7.16063
▁got	-7.16417
able	-7.1643
▁here	-7.16943
▁ho	-7.1707
▁much	-7.18387
um	-7.18779
▁part	-7.18889
▁b	-7.18894
ish	-7.19012
is	-7.19172
▁man	-7.19263
▁mhm	-7.19561
▁something	-7.20623
ant	-7.20697
▁way	-7.21006
▁com	-7.22141
▁us	-7.23069
▁pre	-7.23243
qu	-7.23408
ard	-7.24325
vi	-7.24419
▁sa	-7.24793
▁back	-7.26808
▁should	-7.2719
ci	-7.28207
per	-7.28423
▁le	-7.28529
▁only	-7.286
ru	-7.2929
ot	-7.29389
▁first	-7.29708
les	-7.29792
▁little	-7.30642
▁school	-7.31607
▁hu	-7.32142
▁bi	-7.33334
▁th	-7.34023
ff	-7.3413
man	-7.34158
▁off	-7.34221
ated	-7.3425
▁come	-7.34653
▁car	-7.35405
im	-7.35447
▁down	-7.35883
▁m	-7.36663
un	-7.36857
▁mi	-7.37273
▁okay	-7.37552
▁fi	-7.37856
▁things	-7.38057
ac	-7.38198
ain	-7.38214
▁need	-7.38314
▁many	-7.38913
▁thing	-7.39294
ta	-7.40274
pt	-7.4028
ight	-7.40637
om	-7.40724
▁year	-7.41398
▁fl	-7.41459
▁sc	-7.41479
▁ri	-7.41969
▁te	-7.42072
▁ru	-7.42754
co	-7.43324
▁never	-7.43671
▁da	-7.4417
▁still	-7.44344
▁al	-7.44823
▁most	-7.46014
pe	-7.46434
▁hi	-7.46754
▁singapore	-7.46825
ful	-7.47031
▁long	-7.4706
▁call	-7.47341
ine	-7.4942
▁years	-7.49468
ig	-7.49664
huh	-7.49682
▁three	-7.50292
ide	-7.50358
▁fe	-7.50497
▁those	-7.50926
ec	-7.51609
▁live	-7.51632
▁before	-7.51651
▁sta	-7.51927
ise	-7.52021
▁again	-7.52492
am	-7.52607
ical	-7.53019
▁play	-7.53865
▁old	-7.54578
ma	-7.55017
▁en	-7.5508
▁'	-7.55199
mi	-7.55642
tic	-7.5728
ction	-7.57282
mo	-7.57309
▁comp	-7.57511
▁hear	-7.57676
▁friend	-7.58106
ian	-7.58228
▁vi	-7.58385
mb	-7.58851
und	-7.58858
▁gu	-7.58902
▁through	-7.59529
em	-7.60064
▁sha	-7.6011
▁min	-7.60144
ary	-7.6056
▁home	-7.61139
▁guess	-7.6114
▁give	-7.6163
▁talk	-7.61761
▁high	-7.61952
▁such	-7.62364
▁bl	-7.62523
▁help	-7.62785
ho	-7.63049
ous	-7.63203
po	-7.63232
▁pi	-7.63387
▁ga	-7.63465
▁may	-7.63705
▁didn	-7.64622
ti	-7.64895
ia	-7.65026
no	-7.65161
▁app	-7.6548
▁every	-7.65618
pp	-7.65908
ni	-7.66669
▁ta	-7.67256
▁own	-7.67488
▁life	-7.67842
▁made	-7.68256
▁r	-7.68268
▁mar	-7.68644
ath	-7.68674
▁y	-7.68862
▁place	-7.69796
ally	-7.6999
▁alway	-7.70614
▁pe	-7.70888
▁start	-7.71062
▁name	-7.71444
▁same	-7.71529
▁let	-7.71737
ph	-7.72524
▁last	-7.72839
▁actually	-7.73454
▁ne	-7.73575
▁both	-7.73948
iv	-7.74514
▁another	-7.75194
▁pri	-7.75336
▁yes	-7.75523
▁great	-7.75553
▁person	-7.75969
▁boy	-7.76155
▁thought	-7.76558
▁watch	-7.77034
ward	-7.78534
▁money	-7.78552
▁went	-7.78597
▁show	-7.78603
▁feel	-7.78855
▁h	-7.78996
▁different	-7.7946
▁used	-7.80081
▁hand	-7.80754
▁gra	-7.81087
▁tra	-7.81529
▁big	-7.81691
▁n	-7.8173
▁real	-7.81755
▁wa	-7.81915
▁why	-7.81998
▁four	-7.82555
▁find	-7.82639
for	-7.83384
▁five	-7.8415
▁being	-7.84467
ud	-7.85153
ze	-7.8561
▁read	-7.8602
lic	-7.86207
da	-7.86688
▁family	-7.8679
▁che	-7.87062
▁per	-7.87082
▁end	-7.87685
▁change	-7.87766
ness	-7.87785
▁imp	-7.87787
▁put	-7.87892
ca	-7.87978
▁under	-7.8821
▁came	-7.89277
ick	-7.8972
ag	-7.90405
▁seem	-7.90555
▁win	-7.90786
▁ten	-7.91337
▁jo	-7.91742
▁tri	-7.91749
▁happen	-7.92005
▁pu	-7.92092
▁around	-7.92094
▁plan	-7.92299
▁sure	-7.92342
▁house	-7.92388
▁far	-7.92457
j	-7.92631
▁sh	-7.92795
▁while	-7.92825
▁cha	-7.92881
▁anything	-7.93268
▁war	-7.93494
nna	-7.93543
▁use	-7.93546
▁love	-7.93724
▁world	-7.94114
▁stuff	-7.94373
▁better	-7.94486
ster	-7.94908
▁ca	-7.95103
▁does	-7.95607
▁probably	-7.95663
▁hard	-7.95779
gg	-7.9627
ctor	-7.96689
▁ja	-7.96774
▁must	-7.97053
▁doing	-7.97183
ha	-7.97225
▁found	-7.97429
▁care	-7.97596
▁du	-7.97741
row	-7.98156
▁state	-7.98207
▁point	-7.98417
min	-7.98494
ach	-7.99078
ative	-7.99134
▁pretty	-7.9917
▁interest	-7.99235
our	-7.99345
ever	-7.99355
led	-8.00232
▁ju	-8.0027
▁week	-8.00404
▁tell	-8.00787
▁cre	-8.00854
ft	-8.00921
▁might	-8.01023
▁ki	-8.01735
▁cl	-8.0238
▁inter	-8.02463
▁six	-8.03178
ton	-8.03178
ak	-8.03361
ite	-8.03665
ling	-8.0519
▁acc	-8.05874
land	-8.05875
▁business	-8.0701
▁ph	-8.07251
▁away	-8.07685
▁though	-8.07698
lu	-8.07848
▁each	-8.07889
▁pay	-8.0801
▁keep	-8.08173
▁everything	-8.0843
fi	-8.08817
av	-8.09025
▁children	-8.09074
▁public	-8.09261
▁pass	-8.09535
com	-8.09704
ual	-8.10508
▁em	-8.10604
▁ti	-8.11077
▁maybe	-8.11523
▁young	-8.12103
ough	-8.12591
▁u	-8.12826
ities	-8.13096
▁few	-8.13643
▁month	-8.13754
▁ste	-8.13857
▁move	-8.14135
▁close	-8.14322
▁sea	-8.15009
son	-8.15382
▁pl	-8.15513
▁turn	-8.15774
▁men	-8.16169
▁add	-8.16184
ious	-8.16285
ible	-8.16358
qui	-8.16834
▁am	-8.17581
nch	-8.17643
▁grow	-8.18046
▁miss	-8.18625
▁cor	-8.19477
▁fun	-8.19602
▁done	-8.19607
▁government	-8.19792
▁ever	-8.20202
▁act	-8.20384
▁set	-8.20504
▁kids	-8.20612
▁na	-8.2087
▁eight	-8.21181
▁exact	-8.21267
way	-8.21269
▁open	-8.21587
▁getting	-8.21595
▁next	-8.21901
ab	-8.22015
▁problem	-8.22673
▁er	-8.22829
▁cri	-8.23357
▁job	-8.23563
▁produc	-8.23603
▁cat	-8.23912
▁night	-8.24512
▁book	-8.25115
▁learn	-8.26123
line	-8.26131
▁small	-8.26533
ating	-8.26639
▁without	-8.26763
ial	-8.27067
▁course	-8.27522
▁country	-8.27603
▁area	-8.28047
▁during	-8.28075
▁once	-8.28219
▁best	-8.2848
▁bad	-8.28539
▁mister	-8.28685
▁trans	-8.29391
▁nothing	-8.29492
▁believe	-8.2961
▁head	-8.29874
▁seven	-8.30046
▁whole	-8.30156
▁face	-8.30396
▁water	-8.30436
▁service	-8.3074
▁cap	-8.30917
▁bro	-8.30937
▁later	-8.30968
amp	-8.31097
▁took	-8.31326
▁va	-8.31448
▁hour	-8.31517
▁true	-8.32007
▁mu	-8.32167
▁since	-8.32558
▁nine	-8.32751
op	-8.3299
▁large	-8.33295
▁city	-8.33626
▁doesn	-8.33743
▁having	-8.33783
▁sub	-8.3391
▁art	-8.34199
ship	-8.34255
▁continue	-8.34573
▁market	-8.3479
▁seen	-8.35148
▁game	-8.35356
▁sit	-8.35505
▁case	-8.35554
▁law	-8.35713
▁lu	-8.35719
▁certain	-8.35769
▁je	-8.3787
▁tru	-8.37886
▁else	-8.38091
▁qua	-8.38141
▁enough	-8.38266
▁second	-8.38313
▁hope	-8.38726
▁between	-8.39105
▁fact	-8.39264
▁saw	-8.39306
▁food	-8.40179
▁left	-8.40388
▁company	-8.40851
▁stand	-8.41324
▁able	-8.41466
▁teach	-8.41996
▁expect	-8.42482
▁sometimes	-8.42758
▁yet	-8.43127
▁follow	-8.43141
▁main	-8.43498
▁told	-8.43676
▁girl	-8.44092
▁system	-8.4415
▁bri	-8.44336
▁walk	-8.44452
▁bra	-8.44509
▁near	-8.44609
▁word	-8.44615
bb	-8.44726
▁group	-8.44937
▁less	-8.45168
▁number	-8.45296
▁consider	-8.45665
▁remain	-8.45713
▁develop	-8.46078
▁train	-8.4608
▁town	-8.46233
▁lead	-8.46666
▁free	-8.4732
▁idea	-8.47789
▁together	-8.47851
▁important	-8.4819
▁gen	-8.48278
▁agree	-8.4838
▁quite	-8.48551
▁nice	-8.48782
▁try	-8.49001
▁understand	-8.49477
▁reason	-8.49557
▁support	-8.5013
▁trying	-8.5025
▁low	-8.505
▁stop	-8.51175
▁sort	-8.51251
▁hundred	-8.51709
ash	-8.5212
▁become	-8.52237
▁eat	-8.5242
▁today	-8.52422
ready	-8.52509
▁remember	-8.52589
▁issue	-8.5281
▁side	-8.52886
bi	-8.53132
▁line	-8.53897
wi	-8.54236
▁matter	-8.54252
▁question	-8.55006
▁asked	-8.55261
▁dollars	-8.5554
nder	-8.55836
▁twenty	-8.55947
▁rest	-8.56453
▁upon	-8.56489
▁student	-8.57335
▁count	-8.57377
▁father	-8.57571
▁half	-8.57841
▁office	-8.57876
▁mother	-8.58505
▁won	-8.58746
▁class	-8.58832
▁almos	-8.58885
▁def	-8.58945
▁wait	-8.59111
▁cause	-8.59276
bility	-8.60244
▁sound	-8.60353
▁least	-8.60385
▁either	-8.60429
▁sign	-8.60481
▁fire	-8.6087
▁light	-8.61021
▁several	-8.62102
▁whatever	-8.6214
▁himself	-8.62259
▁computer	-8.62324
▁room	-8.62429
▁report	-8.62642
▁america	-8.62708
▁minute	-8.62731
▁wh	-8.6292
▁general	-8.63095
▁price	-8.6313
▁child	-8.64238
▁bre	-8.64252
▁definitely	-8.64816
▁parents	-8.6511
▁suppose	-8.65132
▁direct	-8.65311
▁operat	-8.6571
▁among	-8.6644
▁couple	-8.66559
▁cost	-8.66687
light	-8.6673
▁often	-8.66847
▁arm	-8.66919
▁appear	-8.67021
▁wow	-8.67257
▁term	-8.67548
▁return	-8.67712
▁speak	-8.67725
▁usually	-8.68014
▁meet	-8.68236
▁ski	-8.68592
▁power	-8.68693
▁elect	-8.68836
▁south	-8.69171
▁team	-8.69306
▁local	-8.69631
▁north	-8.69932
▁current	-8.69971
▁wonder	-8.70065
▁include	-8.7015
▁strong	-8.70378
▁shi	-8.70752
▁making	-8.70802
▁full	-8.71059
▁leave	-8.71367
▁everyone	-8.71527
▁somebody	-8.71739
▁provide	-8.72022
▁movie	-8.72492
▁member	-8.72507
▁experience	-8.72698
▁woman	-8.72894
▁possib	-8.73002
▁order	-8.73265
rself	-8.73789
▁york	-8.74519
▁someone	-8.74649
▁tax	-8.75014
▁short	-8.75062
▁umhu	-8.75393
▁sport	-8.75531
▁companies	-8.75662
▁health	-8.75932
▁bank	-8.75939
▁until	-8.76133
▁answer	-8.7644
▁everybody	-8.76995
▁police	-8.77281
▁especial	-8.77822
where	-8.78044
▁major	-8.78275
▁travel	-8.78397
▁knew	-8.78434
▁program	-8.78557
▁land	-8.7856
▁employ	-8.78927
▁type	-8.78961
▁along	-8.79125
▁college	-8.79338
▁manag	-8.79562
▁music	-8.80204
▁clear	-8.80663
▁safe	-8.81161
▁myself	-8.81567
▁education	-8.82179
▁result	-8.82217
▁bring	-8.82459
▁court	-8.82999
▁enter	-8.83073
▁enjoy	-8.83659
▁hold	-8.83814
▁involv	-8.84908
▁mode	-8.85342
▁wheth	-8.85608
▁husband	-8.85924
came	-8.86334
▁million	-8.86347
▁black	-8.86446
▁difficult	-8.86793
▁social	-8.86832
▁morning	-8.87937
ency	-8.89013
▁level	-8.89492
▁felt	-8.89533
▁married	-8.89536
▁taking	-8.89645
▁require	-8.91397
▁living	-8.91747
▁early	-8.91982
▁wife	-8.92073
▁white	-8.92321
▁present	-8.92532
▁visit	-8.92823
▁effect	-8.92967
▁serve	-8.93151
▁affect	-8.93244
▁further	-8.93738
▁brother	-8.93979
▁simp	-8.94226
▁shop	-8.94461
▁period	-8.94686
▁daughter	-8.94732
▁national	-8.95458
▁break	-8.96428
▁quick	-8.96926
▁common	-8.97022
▁view	-8.9746
▁situation	-8.97521
▁outside	-8.97836
▁east	-8.97889
▁community	-8.97951
▁rather	-8.98069
▁thousand	-8.98079
▁future	-8.98853
▁concern	-8.9894
▁success	-8.99223
▁nu	-8.99376
▁grand	-8.99443
▁complete	-8.99532
▁spend	-8.99721
▁began	-9.00086
▁topic	-9.00089
▁example	-9.00356
▁phone	-9.00411
▁increase	-9.00782
▁street	-9.01081
▁sense	-9.01082
▁final	-9.01226
▁locat	-9.01334
▁perform	-9.01543
▁charge	-9.02653
▁record	-9.02945
▁instead	-9.02987
▁women	-9.03875
▁information	-9.04077
▁countries	-9.04454
▁born	-9.04534
lthough	-9.05339
▁acros	-9.05349
▁funny	-9.05493
▁security	-9.05931
▁cold	-9.07155
▁smoke	-9.07365
▁depend	-9.0828
▁treat	-9.08361
▁process	-9.09114
▁condition	-9.09412
▁themselves	-9.0952
▁recent	-9.09636
▁ground	-9.09701
▁behind	-9.09979
ified	-9.10071
▁custom	-9.1025
▁gold	-9.11079
▁design	-9.11424
▁thirty	-9.11469
▁third	-9.12161
▁drink	-9.12241
▁strange	-9.12789
▁slow	-9.12797
▁particular	-9.13243
▁attack	-9.1361
▁project	-9.13794
▁hello	-9.14229
▁special	-9.14264
▁listen	-9.14277
▁wrong	-9.14823
▁space	-9.152
▁story	-9.15468
▁improve	-9.15917
▁english	-9.16376
▁happy	-9.16418
▁value	-9.16768
▁voice	-9.16878
▁spoke	-9.17338
▁account	-9.17478
▁brought	-9.17556
▁green	-9.18458
▁private	-9.18525
▁control	-9.18694
▁media	-9.19118
▁author	-9.19354
▁figure	-9.19357
▁china	-9.19683
▁university	-9.1972
▁easy	-9.19957
▁language	-9.20088
▁foreign	-9.20399
▁includ	-9.21419
▁please	-9.21426
▁easi	-9.21565
▁according	-9.21668
▁decided	-9.22943
▁dream	-9.26448
▁sudden	-9.26561
▁society	-9.26582
▁subject	-9.2671
place	-9.27515
▁animal	-9.27733
▁horse	-9.27742
▁cook	-9.28454
▁serious	-9.28663
▁draw	-9.28796
▁opportunit	-9.28898
▁front	-9.28998
▁church	-9.29032
▁president	-9.29127
▁addition	-9.29468
▁fifty	-9.29886
▁worth	-9.30114
▁financial	-9.30314
▁hospital	-9.30358
▁difference	-9.30402
▁collect	-9.30774
▁study	-9.30942
▁individual	-9.31325
▁effort	-9.31392
▁laugh	-9.31571
▁industry	-9.31683
▁stock	-9.31752
▁position	-9.31773
▁basicall	-9.31972
▁similar	-9.31986
▁regular	-9.322
▁connect	-9.32475
▁research	-9.32855
▁accept	-9.32916
▁restaurant	-9.33116
▁protect	-9.33653
▁amount	-9.33664
▁write	-9.33763
▁drop	-9.33981
▁john	-9.34348
▁history	-9.34366
▁threat	-9.34477
▁middle	-9.34548
▁political	-9.34906
▁cross	-9.35616
▁sleep	-9.35872
▁original	-9.36222
▁popular	-9.36328
▁immediate	-9.36563
▁engine	-9.36625
▁kept	-9.36761
▁drug	-9.36805
▁decision	-9.36905
▁economy	-9.36999
▁measure	-9.37026
▁california	-9.37046
▁video	-9.37262
▁challenge	-9.37437
▁surprise	-9.37854
▁entire	-9.38215
▁exercise	-9.38511
▁itself	-9.38946
▁available	-9.39017
▁benefit	-9.39137
▁character	-9.39379
▁economic	-9.39658
▁patient	-9.4033
▁despite	-9.40769
▁feature	-9.40966
▁absolute	-9.42389
▁picture	-9.43342
▁club	-9.43593
▁football	-9.44036
▁focus	-9.44125
▁discuss	-9.45031
▁alchemist	-9.4512
▁respect	-9.4521
▁perhaps	-9.45313
▁technology	-9.45724
▁natural	-9.45738
▁summer	-9.46074
▁observ	-9.4756
▁express	-9.47652
q	-9.64347
