<unk> 0
s 1
▁the 2
t 3
▁a 4
▁i 5
' 6
▁and 7
▁to 8
ed 9
d 10
e 11
▁of 12
ing 13
▁in 14
▁it 15
▁you 16
▁that 17
n 18
er 19
y 20
m 21
r 22
▁be 23
▁was 24
▁he 25
▁is 26
▁for 27
▁know 28
re 29
p 30
ly 31
▁but 32
▁they 33
g 34
▁so 35
▁yeah 36
▁have 37
▁we 38
o 39
c 40
▁s 41
▁like 42
or 43
▁on 44
a 45
i 46
▁re 47
▁with 48
ll 49
▁do 50
▁not 51
al 52
▁are 53
b 54
le 55
u 56
ar 57
▁c 58
es 59
▁this 60
▁as 61
l 62
en 63
▁uh 64
ion 65
▁what 66
in 67
ve 68
k 69
▁there 70
▁or 71
▁my 72
▁can 73
▁all 74
ent 75
f 76
▁his 77
▁me 78
▁just 79
▁at 80
▁de 81
▁f 82
▁don 83
▁um 84
il 85
w 86
▁had 87
▁no 88
an 89
▁think 90
it 91
ri 92
▁she 93
▁one 94
ra 95
▁go 96
▁if 97
h 98
▁from 99
ation 100
on 101
▁e 102
v 103
▁an 104
▁ 105
ce 106
▁t 107
▁would 108
▁right 109
ch 110
▁were 111
ic 112
▁out 113
▁will 114
ur 115
▁about 116
▁well 117
ment 118
▁oh 119
ck 120
▁by 121
▁her 122
▁up 123
▁con 124
▁when 125
▁st 126
cause 127
th 128
ir 129
▁also 130
▁their 131
▁more 132
▁time 133
▁w 134
▁people 135
▁how 136
▁has 137
▁pa 138
▁mean 139
li 140
▁g 141
▁some 142
▁get 143
▁d 144
▁really 145
▁ex 146
ro 147
ate 148
▁said 149
▁been 150
ge 151
ne 152
▁who 153
el 154
▁other 155
▁ba 156
▁bu 157
ist 158
▁them 159
ut 160
▁now 161
▁work 162
ol 163
▁co 164
▁po 165
▁un 166
▁your 167
▁him 168
lo 169
▁good 170
ver 171
▁could 172
us 173
te 174
▁pro 175
▁even 176
▁ra 177
ies 178
▁see 179
la 180
est 181
▁fa 182
ad 183
▁then 184
▁ro 185
▁mo 186
at 187
x 188
as 189
▁any 190
ow 191
ance 192
▁su 193
▁bo 194
ul 195
ive 196
▁two 197
▁p 198
ng 199
▁la 200
▁say 201
▁o 202
z 203
▁ma 204
▁over 205
id 206
age 207
▁very 208
▁which 209
▁did 210
ry 211
▁our 212
▁want 213
▁after 214
▁new 215
▁v 216
▁ha 217
▁ah 218
▁where 219
oo 220
ity 221
ke 222
▁ch 223
▁lot 224
▁into 225
▁lo 226
▁se 227
▁sp 228
ure 229
▁kind 230
▁day 231
▁than 232
▁dis 233
▁these 234
▁li 235
▁take 236
▁going 237
▁di 238
ence 239
▁k 240
▁make 241
▁look 242
▁too 243
▁got 244
able 245
▁here 246
▁ho 247
▁much 248
um 249
▁part 250
▁b 251
ish 252
is 253
▁man 254
▁mhm 255
▁something 256
ant 257
▁way 258
▁com 259
▁us 260
▁pre 261
qu 262
ard 263
vi 264
▁sa 265
▁back 266
▁should 267
ci 268
per 269
▁le 270
▁only 271
ru 272
ot 273
▁first 274
les 275
▁little 276
▁school 277
▁hu 278
▁bi 279
▁th 280
ff 281
man 282
▁off 283
ated 284
▁come 285
▁car 286
im 287
▁down 288
▁m 289
un 290
▁mi 291
▁okay 292
▁fi 293
▁things 294
ac 295
ain 296
▁need 297
▁many 298
▁thing 299
ta 300
pt 301
ight 302
om 303
▁year 304
▁fl 305
▁sc 306
▁ri 307
▁te 308
▁ru 309
co 310
▁never 311
▁da 312
▁still 313
▁al 314
▁most 315
pe 316
▁hi 317
▁singapore 318
ful 319
▁long 320
▁call 321
ine 322
▁years 323
ig 324
huh 325
▁three 326
ide 327
▁fe 328
▁those 329
ec 330
▁live 331
▁before 332
▁sta 333
ise 334
▁again 335
am 336
ical 337
▁play 338
▁old 339
ma 340
▁en 341
▁' 342
mi 343
tic 344
ction 345
mo 346
▁comp 347
▁hear 348
▁friend 349
ian 350
▁vi 351
mb 352
und 353
▁gu 354
▁through 355
em 356
▁sha 357
▁min 358
ary 359
▁home 360
▁guess 361
▁give 362
▁talk 363
▁high 364
▁such 365
▁bl 366
▁help 367
ho 368
ous 369
po 370
▁pi 371
▁ga 372
▁may 373
▁didn 374
ti 375
ia 376
no 377
▁app 378
▁every 379
pp 380
ni 381
▁ta 382
▁own 383
▁life 384
▁made 385
▁r 386
▁mar 387
ath 388
▁y 389
▁place 390
ally 391
▁alway 392
▁pe 393
▁start 394
▁name 395
▁same 396
▁let 397
ph 398
▁last 399
▁actually 400
▁ne 401
▁both 402
iv 403
▁another 404
▁pri 405
▁yes 406
▁great 407
▁person 408
▁boy 409
▁thought 410
▁watch 411
ward 412
▁money 413
▁went 414
▁show 415
▁feel 416
▁h 417
▁different 418
▁used 419
▁hand 420
▁gra 421
▁tra 422
▁big 423
▁n 424
▁real 425
▁wa 426
▁why 427
▁four 428
▁find 429
for 430
▁five 431
▁being 432
ud 433
ze 434
▁read 435
lic 436
da 437
▁family 438
▁che 439
▁per 440
▁end 441
▁change 442
ness 443
▁imp 444
▁put 445
ca 446
▁under 447
▁came 448
ick 449
ag 450
▁seem 451
▁win 452
▁ten 453
▁jo 454
▁tri 455
▁happen 456
▁pu 457
▁around 458
▁plan 459
▁sure 460
▁house 461
▁far 462
j 463
▁sh 464
▁while 465
▁cha 466
▁anything 467
▁war 468
nna 469
▁use 470
▁love 471
▁world 472
▁stuff 473
▁better 474
ster 475
▁ca 476
▁does 477
▁probably 478
▁hard 479
gg 480
ctor 481
▁ja 482
▁must 483
▁doing 484
ha 485
▁found 486
▁care 487
▁du 488
row 489
▁state 490
▁point 491
min 492
ach 493
ative 494
▁pretty 495
▁interest 496
our 497
ever 498
led 499
▁ju 500
▁week 501
▁tell 502
▁cre 503
ft 504
▁might 505
▁ki 506
▁cl 507
▁inter 508
▁six 509
ton 510
ak 511
ite 512
ling 513
▁acc 514
land 515
▁business 516
▁ph 517
▁away 518
▁though 519
lu 520
▁each 521
▁pay 522
▁keep 523
▁everything 524
fi 525
av 526
▁children 527
▁public 528
▁pass 529
com 530
ual 531
▁em 532
▁ti 533
▁maybe 534
▁young 535
ough 536
▁u 537
ities 538
▁few 539
▁month 540
▁ste 541
▁move 542
▁close 543
▁sea 544
son 545
▁pl 546
▁turn 547
▁men 548
▁add 549
ious 550
ible 551
qui 552
▁am 553
nch 554
▁grow 555
▁miss 556
▁cor 557
▁fun 558
▁done 559
▁government 560
▁ever 561
▁act 562
▁set 563
▁kids 564
▁na 565
▁eight 566
▁exact 567
way 568
▁open 569
▁getting 570
▁next 571
ab 572
▁problem 573
▁er 574
▁cri 575
▁job 576
▁produc 577
▁cat 578
▁night 579
▁book 580
▁learn 581
line 582
▁small 583
ating 584
▁without 585
ial 586
▁course 587
▁country 588
▁area 589
▁during 590
▁once 591
▁best 592
▁bad 593
▁mister 594
▁trans 595
▁nothing 596
▁believe 597
▁head 598
▁seven 599
▁whole 600
▁face 601
▁water 602
▁service 603
▁cap 604
▁bro 605
▁later 606
amp 607
▁took 608
▁va 609
▁hour 610
▁true 611
▁mu 612
▁since 613
▁nine 614
op 615
▁large 616
▁city 617
▁doesn 618
▁having 619
▁sub 620
▁art 621
ship 622
▁continue 623
▁market 624
▁seen 625
▁game 626
▁sit 627
▁case 628
▁law 629
▁lu 630
▁certain 631
▁je 632
▁tru 633
▁else 634
▁qua 635
▁enough 636
▁second 637
▁hope 638
▁between 639
▁fact 640
▁saw 641
▁food 642
▁left 643
▁company 644
▁stand 645
▁able 646
▁teach 647
▁expect 648
▁sometimes 649
▁yet 650
▁follow 651
▁main 652
▁told 653
▁girl 654
▁system 655
▁bri 656
▁walk 657
▁bra 658
▁near 659
▁word 660
bb 661
▁group 662
▁less 663
▁number 664
▁consider 665
▁remain 666
▁develop 667
▁train 668
▁town 669
▁lead 670
▁free 671
▁idea 672
▁together 673
▁important 674
▁gen 675
▁agree 676
▁quite 677
▁nice 678
▁try 679
▁understand 680
▁reason 681
▁support 682
▁trying 683
▁low 684
▁stop 685
▁sort 686
▁hundred 687
ash 688
▁become 689
▁eat 690
▁today 691
ready 692
▁remember 693
▁issue 694
▁side 695
bi 696
▁line 697
wi 698
▁matter 699
▁question 700
▁asked 701
▁dollars 702
nder 703
▁twenty 704
▁rest 705
▁upon 706
▁student 707
▁count 708
▁father 709
▁half 710
▁office 711
▁mother 712
▁won 713
▁class 714
▁almos 715
▁def 716
▁wait 717
▁cause 718
bility 719
▁sound 720
▁least 721
▁either 722
▁sign 723
▁fire 724
▁light 725
▁several 726
▁whatever 727
▁himself 728
▁computer 729
▁room 730
▁report 731
▁america 732
▁minute 733
▁wh 734
▁general 735
▁price 736
▁child 737
▁bre 738
▁definitely 739
▁parents 740
▁suppose 741
▁direct 742
▁operat 743
▁among 744
▁couple 745
▁cost 746
light 747
▁often 748
▁arm 749
▁appear 750
▁wow 751
▁term 752
▁return 753
▁speak 754
▁usually 755
▁meet 756
▁ski 757
▁power 758
▁elect 759
▁south 760
▁team 761
▁local 762
▁north 763
▁current 764
▁wonder 765
▁include 766
▁strong 767
▁shi 768
▁making 769
▁full 770
▁leave 771
▁everyone 772
▁somebody 773
▁provide 774
▁movie 775
▁member 776
▁experience 777
▁woman 778
▁possib 779
▁order 780
rself 781
▁york 782
▁someone 783
▁tax 784
▁short 785
▁umhu 786
▁sport 787
▁companies 788
▁health 789
▁bank 790
▁until 791
▁answer 792
▁everybody 793
▁police 794
▁especial 795
where 796
▁major 797
▁travel 798
▁knew 799
▁program 800
▁land 801
▁employ 802
▁type 803
▁along 804
▁college 805
▁manag 806
▁music 807
▁clear 808
▁safe 809
▁myself 810
▁education 811
▁result 812
▁bring 813
▁court 814
▁enter 815
▁enjoy 816
▁hold 817
▁involv 818
▁mode 819
▁wheth 820
▁husband 821
came 822
▁million 823
▁black 824
▁difficult 825
▁social 826
▁morning 827
ency 828
▁level 829
▁felt 830
▁married 831
▁taking 832
▁require 833
▁living 834
▁early 835
▁wife 836
▁white 837
▁present 838
▁visit 839
▁effect 840
▁serve 841
▁affect 842
▁further 843
▁brother 844
▁simp 845
▁shop 846
▁period 847
▁daughter 848
▁national 849
▁break 850
▁quick 851
▁common 852
▁view 853
▁situation 854
▁outside 855
▁east 856
▁community 857
▁rather 858
▁thousand 859
▁future 860
▁concern 861
▁success 862
▁nu 863
▁grand 864
▁complete 865
▁spend 866
▁began 867
▁topic 868
▁example 869
▁phone 870
▁increase 871
▁street 872
▁sense 873
▁final 874
▁locat 875
▁perform 876
▁charge 877
▁record 878
▁instead 879
▁women 880
▁information 881
▁countries 882
▁born 883
lthough 884
▁acros 885
▁funny 886
▁security 887
▁cold 888
▁smoke 889
▁depend 890
▁treat 891
▁process 892
▁condition 893
▁themselves 894
▁recent 895
▁ground 896
▁behind 897
ified 898
▁custom 899
▁gold 900
▁design 901
▁thirty 902
▁third 903
▁drink 904
▁strange 905
▁slow 906
▁particular 907
▁attack 908
▁project 909
▁hello 910
▁special 911
▁listen 912
▁wrong 913
▁space 914
▁story 915
▁improve 916
▁english 917
▁happy 918
▁value 919
▁voice 920
▁spoke 921
▁account 922
▁brought 923
▁green 924
▁private 925
▁control 926
▁media 927
▁author 928
▁figure 929
▁china 930
▁university 931
▁easy 932
▁language 933
▁foreign 934
▁includ 935
▁please 936
▁easi 937
▁according 938
▁decided 939
▁dream 940
▁sudden 941
▁society 942
▁subject 943
place 944
▁animal 945
▁horse 946
▁cook 947
▁serious 948
▁draw 949
▁opportunit 950
▁front 951
▁church 952
▁president 953
▁addition 954
▁fifty 955
▁worth 956
▁financial 957
▁hospital 958
▁difference 959
▁collect 960
▁study 961
▁individual 962
▁effort 963
▁laugh 964
▁industry 965
▁stock 966
▁position 967
▁basicall 968
▁similar 969
▁regular 970
▁connect 971
▁research 972
▁accept 973
▁restaurant 974
▁protect 975
▁amount 976
▁write 977
▁drop 978
▁john 979
▁history 980
▁threat 981
▁middle 982
▁political 983
▁cross 984
▁sleep 985
▁original 986
▁popular 987
▁immediate 988
▁engine 989
▁kept 990
▁drug 991
▁decision 992
▁economy 993
▁measure 994
▁california 995
▁video 996
▁challenge 997
▁surprise 998
▁entire 999
▁exercise 1000
▁itself 1001
▁available 1002
▁benefit 1003
▁character 1004
▁economic 1005
▁patient 1006
▁despite 1007
▁feature 1008
▁absolute 1009
▁picture 1010
▁club 1011
▁football 1012
▁focus 1013
▁discuss 1014
▁alchemist 1015
▁respect 1016
▁perhaps 1017
▁technology 1018
▁natural 1019
▁summer 1020
▁observ 1021
▁express 1022
q 1023
<blk> 1024
